TRT-5106-EntropyCalibration
data: 4000890a
mobilenet0_batchnorm0: 3c69c05a
mobilenet0_batchnorm1: 3c3175bc
mobilenet0_batchnorm2: 3bd923af
mobilenet0_batchnorm3: 3c029fa1
mobilenet0_batchnorm4: 3baee2dc
mobilenet0_batchnorm5: 3c281bcd
mobilenet0_batchnorm6: 3bf2bb7e
mobilenet0_batchnorm7: 3bce6fbd
mobilenet0_batchnorm8: 3b99c1e1
mobilenet0_batchnorm9: 3c17f367
mobilenet0_batchnorm10: 3bd0efe0
mobilenet0_batchnorm11: 3bcf017f
rf_c1_red_conv_bn: 3c4fd0d5
mobilenet0_batchnorm12: 3b81a76e
mobilenet0_batchnorm13: 3c040cea
mobilenet0_batchnorm14: 3b8be399
mobilenet0_batchnorm15: 3bf5c67f
mobilenet0_batchnorm16: 3b8724b8
mobilenet0_batchnorm17: 3bc0b90b
mobilenet0_batchnorm18: 3bae1f91
mobilenet0_batchnorm19: 3c0130b4
mobilenet0_batchnorm20: 3b9f257a
mobilenet0_batchnorm21: 3bd532b7
mobilenet0_batchnorm22: 3bfcea76
mobilenet0_batchnorm23: 3be07142
rf_c2_lateral_bn: 3cac80f3
mobilenet0_batchnorm24: 3bb53a3e
mobilenet0_batchnorm25: 3b818d5a
mobilenet0_batchnorm26: 3d30c855
rf_c3_lateral_bn: 3c4b6b6e
rf_c3_upsampling: 3c4b6b6e
rf_c3_det_conv1_bn: 3cb9e405
crop0: 3c4b6b6e
rf_c3_det_context_conv1_bn: 3c58f643
plus0: 3ca410bc
rf_c3_det_context_conv2_bn: 3caa1499
rf_c3_det_context_conv3_1_bn: 3c84a189
rf_c2_aggr_bn: 3c0b5f77
rf_c2_upsampling: 3c0b5f77
rf_c3_det_context_conv3_2_bn: 3cd66ca8
rf_c2_det_conv1_bn: 3c73100e
crop1: 3bd42dfe
rf_c2_det_context_conv1_bn: 3c5ad8ca
plus1: 3c84756c
rf_c3_det_concat: 3cb322ab
face_rpn_cls_score_stride32: 3d506d1b
face_rpn_bbox_pred_stride32: 3b92cebb
face_rpn_landmark_pred_stride32: 3beeabc7
rf_c2_det_context_conv2_bn: 3c862847
face_rpn_cls_score_reshape_stride32: 3d506d1b
rf_c2_det_context_conv3_1_bn: 3c80c5c9
rf_c1_aggr_bn: 3c2b4627
face_rpn_cls_prob_stride32: 3c02f548
face_rpn_cls_prob_reshape_stride32: 3c02f548
rf_c2_det_context_conv3_2_bn: 3ca05450
rf_c1_det_conv1_bn: 3c7d63ae
rf_c1_det_context_conv1_bn: 3c2c033d
rf_c2_det_concat: 3cdef78c
face_rpn_cls_score_stride16: 3d3c9198
face_rpn_bbox_pred_stride16: 3b944255
face_rpn_landmark_pred_stride16: 3bc5db02
rf_c1_det_context_conv2_bn: 3c86133e
face_rpn_cls_score_reshape_stride16: 3d3c9198
rf_c1_det_context_conv3_1_bn: 3c340e82
face_rpn_cls_prob_stride16: 3c02f4a8
face_rpn_cls_prob_reshape_stride16: 3c02f4a8
rf_c1_det_context_conv3_2_bn: 3ca3e53d
rf_c1_det_concat: 3c85d702
face_rpn_cls_score_stride8: 3d320293
face_rpn_bbox_pred_stride8: 3b84516b
face_rpn_landmark_pred_stride8: 3bacb0cf
face_rpn_cls_score_reshape_stride8: 3d320293
face_rpn_cls_prob_stride8: 3c02d3fb
face_rpn_cls_prob_reshape_stride8: 3c02d3fb
